11111110
00011000
11111110
11111000
00010011
00010011
11111100
00010100
00010001
11111011
11111000
00100010
11111101
11101110
00000000
00000001
11111101
00000010
00001111
00000110
11110010
11110101
11100111
11111101
11011111
11100011
11110010
00000100
11110001
00010010
00011010
11111010
11110101
00001001
00000011
00000010
11111101
11111010
00001101
00100011
00010100
11101111
11100000
11111100
00100111
11101011
11001100
00001010
11111110
11101111
00110000
00001101
00001001
00001001
00001010
11110011
00011000
00001111
11101111
11101100
00010100
00101000
11100000
11111001
00000001
00010111
11011101
11110001
00001011
11110100
11101101
11101000
00000010
11110100
11101111
11110010
00010001
11110100
11110111
00100000
11011001
00110001
11010100
11010110
11011101
01000000
11111110
11111110
11101101
00010000
11110101
00000101
11000101
00100001
00000011
11111010
11100011
11110101
11101101
11100100
00001111
00010001
00010110
00011011
00111000
00101001
00001001
00000000
11111101
11101101
11011110
11100011
00011110
00000110
00001110
11110001
00111010
00010100
11111101
11110001
00010010
11111010
00000010
00010100
11100111
11111010
00000100
00101010
00011100
00101000
00111101
00000110
11111110
11101110
11110110
11110100
11010000
11110001
11011101
00000010
00000000
11111010
00001100
00010000
11001100
11111001
00001111
00011110
11110010
00010001
00000001
00010010
11100001
11011011
11010000
00000011
00000001
00011100
00011000
00010111
00011110
00010100
00001000
00000100
00010111
00000011
00001011
00001011
00000000
00000001
00010001
11111100
00100101
11111010
00010100
11110000
11111010
00100110
00010111
11111110
11101000
00000000
11111011
11110111
11100110
00010011
00010010
11111100
11101101
11111000
00000000
00001000
00010100
00100000
00100000
00101100
00100111
11101001
11110011
00011010
11101111
11011011
00000110
11101100
00011011
00010110
11110101
11110101
11111001
11010000
11001100
11010111
11111011
00010111
00000000
11101111
00011001
00011000
00011110
00011100
11111000
11110110
11100110
11110111
00110101
11101110
11110000
11110111
00001000
11101111
00101100
11101111
00010010
00001111
11110010
11111010
11110000
00000001
00001000
11110001
00000001
00010010
11101010
11100111
11100110
11110011
11100000
10110011
00000000
00000001
00010010
11101001
11101101
00010010
00011111
00101001
11110000
00000010
00001000
00111001
11111100
00001000
00001110
00100101
00011000
00000101
11111110
00000000
00101100
00000100
00001100
11101110
00001101
11100011
11011011
00100001
00011011
11110001
11111011
00000011
00010101
00001100
00100011
11111000
00000000
11111011
00001011
00000101
00011000
00101100
00011000
11100111
00000110
11111111
00001011
11011100
11110110
00010111
00101001
00101010
11101101
11100110
11110110
11111001
11110001
11100010
11110011
11111111
11100100
11100010
00001111
00100011
11100001
11101010
00001000
00001001
11100101
00000101
00001110
00001101
11110100
11010001
10111100
00011010
11110100
11000001
11000101
00001001
00001101
11101111
00001001
00010001
00011100
00010000
00001011
00001101
11110000
11010011
11100001
00011000
00010111
00100011
00001011
00001101
00001111
11110001
00001111
00001100
00010011
00001011
00000000
11111011
00010101
00011100
00101011
00000101
00011110
00010111
00000010
00000000
00010011
11101001
11110011
00101001
11111101
11100010
11011110
11101000
00010001
11111110
00001001
11011110
11111100
00001100
00111001
00000100
00001110
11110110
11010111
11101010
11000111
00000001
00000000
00000000
00001110
11111111
11111010
00000111
11110110
11101110
00001101
00010111
00101000
00101010
11110110
11100011
11111010
11010000
00001011
00010000
11100011
00001111
11111111
00010100
11111001
00001100
00000011
00010101
11101111
11111000
11110100
00010010
11010100
11111111
00000111
00000101
11110111
00010100
00010111
00011001
00110010
00010010
11101001
00000100
00000000
00011001
11101111
00000100
00001011
11101101
00000000
11101100
00010110
00101000
00001110
11111011
11110100
11101001
00001110
00001101
11010001
11001001
11111000
00000110
00010101
00100100
11101101
00000010
11110011
00001010
00011100
00001000
11001110
00001010
00000111
00001101
00000000
00011111
11111101
11001010
11110010
00010011
11100011
10111110
11000100
11100000
00001001
00000001
00000001
00010110
00011110
11111010
00001010
00001111
00110111
11111100
00000011
00000000
11110001
00001001
