WIDTH=8;
DEPTH=480;
ADDRESS_RADIX=DEC;
DATA_RADIX=HEX;

CONTENT BEGIN
0: FE;
1: 18;
2: FE;
3: F8;
4: 13;
5: 13;
6: FC;
7: 14;
8: 11;
9: FB;
10: F8;
11: 22;
12: FD;
13: EE;
14: 00;
15: 01;
16: FD;
17: 02;
18: 0F;
19: 06;
20: F2;
21: F5;
22: E7;
23: FD;
24: DF;
25: E3;
26: F2;
27: 04;
28: F1;
29: 12;
30: 1A;
31: FA;
32: F5;
33: 09;
34: 03;
35: 02;
36: FD;
37: FA;
38: 0D;
39: 23;
40: 14;
41: EF;
42: E0;
43: FC;
44: 27;
45: EB;
46: CC;
47: 0A;
48: FE;
49: EF;
50: 30;
51: 0D;
52: 09;
53: 09;
54: 0A;
55: F3;
56: 18;
57: 0F;
58: EF;
59: EC;
60: 14;
61: 28;
62: E0;
63: F9;
64: 01;
65: 17;
66: DD;
67: F1;
68: 0B;
69: F4;
70: ED;
71: E8;
72: 02;
73: F4;
74: EF;
75: F2;
76: 11;
77: F4;
78: F7;
79: 20;
80: D9;
81: 31;
82: D4;
83: D6;
84: DD;
85: 40;
86: FE;
87: FE;
88: ED;
89: 10;
90: F5;
91: 05;
92: C5;
93: 21;
94: 03;
95: FA;
96: E3;
97: F5;
98: ED;
99: E4;
100: 0F;
101: 11;
102: 16;
103: 1B;
104: 38;
105: 29;
106: 09;
107: 00;
108: FD;
109: ED;
110: DE;
111: E3;
112: 1E;
113: 06;
114: 0E;
115: F1;
116: 3A;
117: 14;
118: FD;
119: F1;
120: 12;
121: FA;
122: 02;
123: 14;
124: E7;
125: FA;
126: 04;
127: 2A;
128: 1C;
129: 28;
130: 3D;
131: 06;
132: FE;
133: EE;
134: F6;
135: F4;
136: D0;
137: F1;
138: DD;
139: 02;
140: 00;
141: FA;
142: 0C;
143: 10;
144: CC;
145: F9;
146: 0F;
147: 1E;
148: F2;
149: 11;
150: 01;
151: 12;
152: E1;
153: DB;
154: D0;
155: 03;
156: 01;
157: 1C;
158: 18;
159: 17;
160: 1E;
161: 14;
162: 08;
163: 04;
164: 17;
165: 03;
166: 0B;
167: 0B;
168: 00;
169: 01;
170: 11;
171: FC;
172: 25;
173: FA;
174: 14;
175: F0;
176: FA;
177: 26;
178: 17;
179: FE;
180: E8;
181: 00;
182: FB;
183: F7;
184: E6;
185: 13;
186: 12;
187: FC;
188: ED;
189: F8;
190: 00;
191: 08;
192: 14;
193: 20;
194: 20;
195: 2C;
196: 27;
197: E9;
198: F3;
199: 1A;
200: EF;
201: DB;
202: 06;
203: EC;
204: 1B;
205: 16;
206: F5;
207: F5;
208: F9;
209: D0;
210: CC;
211: D7;
212: FB;
213: 17;
214: 00;
215: EF;
216: 19;
217: 18;
218: 1E;
219: 1C;
220: F8;
221: F6;
222: E6;
223: F7;
224: 35;
225: EE;
226: F0;
227: F7;
228: 08;
229: EF;
230: 2C;
231: EF;
232: 12;
233: 0F;
234: F2;
235: FA;
236: F0;
237: 01;
238: 08;
239: F1;
240: 01;
241: 12;
242: EA;
243: E7;
244: E6;
245: F3;
246: E0;
247: B3;
248: 00;
249: 01;
250: 12;
251: E9;
252: ED;
253: 12;
254: 1F;
255: 29;
256: F0;
257: 02;
258: 08;
259: 39;
260: FC;
261: 08;
262: 0E;
263: 25;
264: 18;
265: 05;
266: FE;
267: 00;
268: 2C;
269: 04;
270: 0C;
271: EE;
272: 0D;
273: E3;
274: DB;
275: 21;
276: 1B;
277: F1;
278: FB;
279: 03;
280: 15;
281: 0C;
282: 23;
283: F8;
284: 00;
285: FB;
286: 0B;
287: 05;
288: 18;
289: 2C;
290: 18;
291: E7;
292: 06;
293: FF;
294: 0B;
295: DC;
296: F6;
297: 17;
298: 29;
299: 2A;
300: ED;
301: E6;
302: F6;
303: F9;
304: F1;
305: E2;
306: F3;
307: FF;
308: E4;
309: E2;
310: 0F;
311: 23;
312: E1;
313: EA;
314: 08;
315: 09;
316: E5;
317: 05;
318: 0E;
319: 0D;
320: F4;
321: D1;
322: BC;
323: 1A;
324: F4;
325: C1;
326: C5;
327: 09;
328: 0D;
329: EF;
330: 09;
331: 11;
332: 1C;
333: 10;
334: 0B;
335: 0D;
336: F0;
337: D3;
338: E1;
339: 18;
340: 17;
341: 23;
342: 0B;
343: 0D;
344: 0F;
345: F1;
346: 0F;
347: 0C;
348: 13;
349: 0B;
350: 00;
351: FB;
352: 15;
353: 1C;
354: 2B;
355: 05;
356: 1E;
357: 17;
358: 02;
359: 00;
360: 13;
361: E9;
362: F3;
363: 29;
364: FD;
365: E2;
366: DE;
367: E8;
368: 11;
369: FE;
370: 09;
371: DE;
372: FC;
373: 0C;
374: 39;
375: 04;
376: 0E;
377: F6;
378: D7;
379: EA;
380: C7;
381: 01;
382: 00;
383: 00;
384: 0E;
385: FF;
386: FA;
387: 07;
388: F6;
389: EE;
390: 0D;
391: 17;
392: 28;
393: 2A;
394: F6;
395: E3;
396: FA;
397: D0;
398: 0B;
399: 10;
400: E3;
401: 0F;
402: FF;
403: 14;
404: F9;
405: 0C;
406: 03;
407: 15;
408: EF;
409: F8;
410: F4;
411: 12;
412: D4;
413: FF;
414: 07;
415: 05;
416: F7;
417: 14;
418: 17;
419: 19;
420: 32;
421: 12;
422: E9;
423: 04;
424: 00;
425: 19;
426: EF;
427: 04;
428: 0B;
429: ED;
430: 00;
431: EC;
432: 16;
433: 28;
434: 0E;
435: FB;
436: F4;
437: E9;
438: 0E;
439: 0D;
440: D1;
441: C9;
442: F8;
443: 06;
444: 15;
445: 24;
446: ED;
447: 02;
448: F3;
449: 0A;
450: 1C;
451: 08;
452: CE;
453: 0A;
454: 07;
455: 0D;
456: 00;
457: 1F;
458: FD;
459: CA;
460: F2;
461: 13;
462: E3;
463: BE;
464: C4;
465: E0;
466: 09;
467: 01;
468: 01;
469: 16;
470: 1E;
471: FA;
472: 0A;
473: 0F;
474: 37;
475: FC;
476: 03;
477: 00;
478: F1;
479: 09;
END;